[PAD]	0
[UNK]	0
[BOS]	0
[EOS]	0
[SEP]	0
[CLS]	0
[MASK]	0
่า	-0
ี่	-1
อง	-2
้า	-3
รา	-4
ํา	-5
ับ	-6
ที่	-7
▁เ	-8
มา	-9
ม่	-10
ัน	-11
อย	-12
ือ	-13
ด้	-14
ไม่	-15
าร	-16
▁แ	-17
คร	-18
ื่	-19
ว่า	-20
อบ	-21
าก	-22
ได้	-23
าม	-24
จะ	-25
มี	-26
ัง	-27
็น	-28
้อ	-29
เล	-30
เป	-31
การ	-32
ให	-33
อน	-34
หน	-35
ระ	-36
ก็	-37
ต่	-38
ีย	-39
เรา	-40
ไป	-41
้น	-42
ี้	-43
้ว	-44
่ง	-45
คว	-46
าย	-47
ทํา	-48
แล	-49
ู้	-50
ิด	-51
ให้	-52
เป็น	-53
อก	-54
ค่	-55
นี้	-56
ิน	-57
ใน	-58
เร	-59
้อง	-60
าน	-61
คน	-62
ตั	-63
ครับ	-64
สอบ	-65
เข	-66
่ว	-67
ความ	-68
ัก	-69
หม	-70
ของ	-71
เพ	-72
ข้อ	-73
้ง	-74
..	-75
หร	-76
หล	-77
กับ	-78
ค่ะ	-79
ดี	-80
เลย	-81
แล้ว	-82
าง	-83
เก	-84
ละ	-85
กัน	-86
มาก	-87
คะ	-88
ู่	-89
ื่อ	-90
กล	-91
▁ส	-92
ประ	-93
เด	-94
▁1	-95
่าง	-96
อยาก	-97
ตัว	-98
่น	-99
จาก	-100
บบ	-101
▁แต่	-102
ผม	-103
นะ	-104
ต้อง	-105
อะ	-106
รู้	-107
▁ค	-108
้าง	-109
ื่อง	-110
ใจ	-111
ใช	-112
ริ	-113
อยู่	-114
ไร	-115
ึง	-116
วัน	-117
▁พ	-118
▁2	-119
มัน	-120
ยัง	-121
หรือ	-122
วย	-123
อา	-124
ือน	-125
ตร	-126
งาน	-127
ทุ	-128
เค	-129
ั้น	-130
่าน	-131
หา	-132
เม	-133
้าน	-134
เท	-135
คุ	-136
แต่	-137
▁เรา	-138
วิ	-139
่ม	-140
ลา	-141
ติ	-142
▁บ	-143
00	-144
มั	-145
แบบ	-146
ัด	-147
▁เพ	-148
ด้วย	-149
เว	-150
นว	-151
ตอน	-152
▁ข	-153
ื้อ	-154
เข้า	-155
ูก	-156
ร์	-157
อะไร	-158
ราะ	-159
ผู้	-160
รับ	-161
ใช้	-162
ี่ย	-163
ไม่ได้	-164
รถ	-165
ุด	-166
เส	-167
ทุก	-168
▁(	-169
ข้อสอบ	-170
กร	-171
ั้ง	-172
ลง	-173
▁และ	-174
ดู	-175
ึ่ง	-176
อย่าง	-177
ึก	-178
ไหม	-179
และ	-180
--	-181
▁อ	-182
่อน	-183
ึ้น	-184
ภา	-185
เห	-186
▁น	-187
ียน	-188
ัญ	-189
เรื่อง	-190
ตาม	-191
หน้า	-192
▁แล	-193
ทาง	-194
ถึง	-195
โด	-196
่อย	-197
ช่ว	-198
▁จ	-199
เจ	-200
ขึ้น	-201
ื่อน	-202
▁แล้ว	-203
ถ้า	-204
คือ	-205
้ํา	-206
เขา	-207
▁ไม่	-208
บอก	-209
ัว	-210
ีก	-211
in	-212
สา	-213
คํา	-214
▁มี	-215
อม	-216
▁ร	-217
ถาม	-218
an	-219
นั้น	-220
ก้	-221
ทย	-222
ไง	-223
กระ	-224
่าย	-225
ออก	-226
เง	-227
คิด	-228
่วน	-229
▁ป	-230
กว่า	-231
อด	-232
55	-233
าท	-234
เน	-235
ไหน	-236
อร์	-237
ทร	-238
บ้าง	-239
ใคร	-240
▁3	-241
เวลา	-242
ัย	-243
on	-244
ฟน	-245
▁คือ	-246
เงิน	-247
▁ซ	-248
นา	-249
▁หรือ	-250
คุณ	-251
เอง	-252
นวข้อสอบ	-253
er	-254
นํา	-255
ิ่ม	-256
▁ที่	-257
หมือน	-258
พอ	-259
ต่อ	-260
▁อยาก	-261
เมื่อ	-262
เรียน	-263
▁เล	-264
co	-265
ย์	-266
เช	-267
ไข	-268
ชอบ	-269
สิ	-270
ไว	-271
ริง	-272
ชี	-273
ก่อน	-274
ื่น	-275
อีก	-276
บ้าน	-277
เพื่อน	-278
re	-279
โดย	-280
ตั้ง	-281
ผล	-282
เคย	-283
ติด	-284
เย	-285
▁h	-286
ทั้ง	-287
ควร	-288
ข้อความ	-289
หน่อย	-290
▁เพราะ	-291
ที	-292
▁จะ	-293
จริง	-294
▁4	-295
มารถ	-296
▁เป	-297
ั่ง	-298
คา	-299
ียง	-300
ยังไง	-301
เหมือน	-302
ปี	-303
tt	-304
ษา	-305
ก้ไข	-306
ส่ง	-307
น้ํา	-308
ี่ยว	-309
้ย	-310
ตอบ	-311
▁ทํา	-312
▁ผม	-313
กลับ	-314
▁t	-315
แร	-316
▁-	-317
ถูก	-318
าะ	-319
สํา	-320
▁ก็	-321
เห็น	-322
▁การ	-323
หลัง	-324
ชา	-325
แน	-326
เปล	-327
....	-328
ิต	-329
เอ	-330
▁แนวข้อสอบ	-331
สน	-332
ิก	-333
ไทย	-334
รุ	-335
ซื้อ	-336
รร	-337
ค้า	-338
//	-339
▁S	-340
ช่วย	-341
▁5	-342
สุด	-343
ือก	-344
วน	-345
นะคะ	-346
สามารถ	-347
นะนํา	-348
ไม	-349
้อย	-350
ส่วน	-351
มั้ย	-352
ลูก	-353
ไว้	-354
▁ใน	-355
ไม่มี	-356
ลัง	-357
▁ถ้า	-358
ัส	-359
แฟน	-360
▁ซึ่ง	-361
จํา	-362
้าย	-363
เพราะ	-364
ต่าง	-365
▁โ	-366
เค้า	-367
▁บาท	-368
เบ	-369
▁ก	-370
รู้ส	-371
ar	-372
ตอนนี้	-373
ใหม่	-374
com	-375
▁พอ	-376
ผ่าน	-377
://	-378
ttp	-379
----	-380
หนัง	-381
or	-382
ปล	-383
เต	-384
เกี่ยว	-385
วง	-386
▁s	-387
ราคา	-388
รู้สึก	-389
ียว	-390
en	-391
สมั	-392
แค่	-393
ณ์	-394
ราย	-395
▁เป็น	-396
คล	-397
▁แก้ไข	-398
ขอ	-399
▁C	-400
ภาพ	-401
ti	-402
เคร	-403
▁http	-404
เอา	-405
▁วัน	-406
ข้อความเมื่อ	-407
▁ช	-408
ใหญ	-409
อบคุณ	-410
ิม	-411
ประมา	-412
ใหญ่	-413
ค่า	-414
ครั้ง	-415
หาร	-416
แม่	-417
รัก	-418
รี	-419
อื่น	-420
็ก	-421
คุย	-422
al	-423
เปิด	-424
่อ	-425
...	-426
ช่วง	-427
เดือน	-428
เเ	-429
ใส	-430
หัว	-431
**	-432
ตุ	-433
▁ขอ	-434
ประมาณ	-435
ขา	-436
สมัคร	-437
หลาย	-438
ทํางาน	-439
เท่า	-440
เลือก	-441
แนะนํา	-442
▁https	-443
ราบ	-444
ียด	-445
as	-446
ww	-447
ี่ยน	-448
ทําให้	-449
เกี่ยวกับ	-450
เฉ	-451
▁6	-452
เดียว	-453
แบบนี้	-454
ัพ	-455
ูด	-456
▁T	-457
กํา	-458
เดิน	-459
▁มัน	-460
▁M	-461
นัก	-462
าส	-463
ท่าน	-464
▁ห	-465
เล่น	-466
▁โดย	-467
มาย	-468
ราช	-469
ร้อ	-470
ปก	-471
ค์	-472
จัด	-473
ตล	-474
คาร	-475
ิจ	-476
่ะ	-477
หมด	-478
กระท	-479
ว่าจะ	-480
วม	-481
้ม	-482
▁ม	-483
▁ระ	-484
ืน	-485
▁P	-486
่อง	-487
ทราบ	-488
พี่	-489
จน	-490
ิง	-491
เราก็	-492
่าว	-493
เปลี่ยน	-494
ูป	-495
หว	-496
ียม	-497
คนที่	-498
ic	-499
น์	-500
20	-501
es	-502
ือง	-503
บุ	-504
บริ	-505
เสีย	-506
ุ่ม	-507
ไฟ	-508
โร	-509
ในการ	-510
▁A	-511
ตรง	-512
อ่าน	-513
เกิด	-514
▁ขอบคุณ	-515
ตา	-516
แนน	-517
ใช่	-518
เพิ่ม	-519
เลยค่ะ	-520
เหล	-521
ใส่	-522
วก	-523
คะแนน	-524
000	-525
ข้า	-526
หนังส	-527
▁ล	-528
พูด	-529
สิน	-530
▁7	-531
ิ่ง	-532
เจอ	-533
ou	-534
หนังสือ	-535
สู	-536
เซ	-537
▁1.	-538
ตลอด	-539
▁B	-540
ผิด	-541
แรก	-542
am	-543
op	-544
ตัวเอง	-545
เริ่ม	-546
หรับ	-547
นึง	-548
สม	-549
ุก	-550
▁เม	-551
ข้าง	-552
มากๆ	-553
▁มา	-554
จะมี	-555
กิจ	-556
ดับ	-557
ูล	-558
ทุน	-559
ธี	-560
ปร	-561
เยอะ	-562
▁เลย	-563
ราชการ	-564
เครื่อง	-565
is	-566
ชาย	-567
ธนา	-568
บอกว่า	-569
ยา	-570
ธนาคาร	-571
น่า	-572
ธิ	-573
แท	-574
กิน	-575
ถือ	-576
บัญ	-577
he	-578
te	-579
ต์	-580
ปัญ	-581
ียบ	-582
▁ตาม	-583
หนึ่ง	-584
ร้าน	-585
จริงๆ	-586
สอบถาม	-587
ยว	-588
▁:	-589
▁G	-590
ั่ว	-591
▁2.	-592
ปกติ	-593
▁ส่วน	-594
สี	-595
▁เร	-596
ต้น	-597
กก	-598
หลัก	-599
อาหาร	-600
กําลัง	-601
รู้ว่า	-602
▁"	-603
มือ	-604
▁เช	-605
ห้อง	-606
สง	-607
▁ด	-608
การณ์	-609
เนื้อ	-610
▁#	-611
ั่น	-612
ุ้น	-613
▁10	-614
เพื่อ	-615
ที่เรา	-616
แบ	-617
แพ	-618
วิต	-619
▁ของ	-620
ตรียม	-621
เมือง	-622
ตก	-623
วิธี	-624
▁ต้อง	-625
ขาย	-626
บิน	-627
สบ	-628
▁n	-629
เทศ	-630
▁เด	-631
เพลง	-632
คําตอบ	-633
ไหมครับ	-634
??	-635
าศ	-636
ุน	-637
กรม	-638
เร็	-639
ร้อม	-640
▁ได้	-641
ac	-642
▁f	-643
▁ย	-644
เอก	-645
พาะ	-646
หาก	-647
il	-648
สด	-649
ทะ	-650
▁m	-651
un	-652
่วง	-653
ก็ไม่	-654
เฉพาะ	-655
el	-656
oo	-657
บั	-658
▁9	-659
มูล	-660
ปัญหา	-661
ไล	-662
นาน	-663
หาย	-664
▁เน	-665
ครอบ	-666
▁จาก	-667
ad	-668
et	-669
คง	-670
ing	-671
ตัด	-672
▁ใคร	-673
ความรู้	-674
บาง	-675
,000	-676
▁ตอน	-677
นิ	-678
สัย	-679
าล	-680
▁c	-681
อาจ	-682
▁3.	-683
น้อง	-684
▁ราคา	-685
ุง	-686
พ่อ	-687
▁ไป	-688
ภาษา	-689
เลิก	-690
ประเทศ	-691
-1	-692
จบ	-693
สั	-694
รูป	-695
เหตุ	-696
กระทู้	-697
ฟัง	-698
โทร	-699
โล	-700
▁L	-701
▁“	-702
ลาด	-703
ชีวิต	-704
ยะ	-705
แจ	-706
โดน	-707
▁คน	-708
เจ้า	-709
บัญชี	-710
ญา	-711
ิล	-712
▁R	-713
ชื่อ	-714
ว่าเรา	-715
เติ	-716
ละเอ	-717
ดา	-718
ส์	-719
▁8	-720
ึกษา	-721
เล้ว	-722
ละเอียด	-723
พล	-724
▁E	-725
and	-726
นวน	-727
▁ให้	-728
ที่จะ	-729
หญ	-730
ไอ	-731
▁I	-732
นี่	-733
ยาย	-734
จ่าย	-735
ร้าง	-736
เย็น	-737
เตรียม	-738
▁ตอนนี้	-739
--------	-740
0%	-741
ัฐ	-742
กลัว	-743
จะเป็น	-744
พา	-745
at	-746
ay	-747
it	-748
▁p	-749
พระ	-750
พัน	-751
สอง	-752
สาย	-753
5555	-754
ค่อย	-755
▁เพื่อ	-756
ro	-757
พัก	-758
สัง	-759
าก็	-760
▁20	-761
▁แบบ	-762
กลุ่ม	-763
การบิน	-764
วด	-765
▁F	-766
▁จน	-767
ายุ	-768
ชาติ	-769
ไหมคะ	-770
▁พอดี	-771
▁เช่น	-772
นะครับ	-773
▁D	-774
ลอง	-775
เหน	-776
้อน	-777
▁ควร	-778
ข้อมูล	-779
-3	-780
อล	-781
คืน	-782
ทุกคน	-783
เข้าใจ	-784
สถ	-785
ุม	-786
แก	-787
ใด	-788
สัก	-789
อัน	-790
เติม	-791
▁กับ	-792
ทิ	-793
สะ	-794
โย	-795
หุ้น	-796
▁ตัว	-797
!!	-798
คม	-799
ท์	-800
หญิง	-801
อยู่ใน	-802
ถูกต้อง	-803
หลังจาก	-804
เศ	-805
แม	-806
เที่	-807
จี	-808
ิว	-809
▁w	-810
www	-811
▁25	-812
เดิม	-813
▁ปี	-814
ครัว	-815
ว่าง	-816
อย่า	-817
บก	-818
โม	-819
▁d	-820
จัง	-821
วัส	-822
่วย	-823
คิดว่า	-824
99	-825
อุ	-826
แข	-827
็ม	-828
▁.	-829
คัญ	-830
จัก	-831
สั่ง	-832
เรีย	-833
▁เราก็	-834
ณะ	-835
็บ	-836
▁[	-837
บาย	-838
สูง	-839
หนู	-840
เกิน	-841
สําคัญ	-842
im	-843
็ต	-844
ทรัพ	-845
▁เรื่อง	-846
หรอ	-847
หมาย	-848
มากกว่า	-849
แนวข้อสอบ	-850
ed	-851
ยก	-852
แด	-853
เก็	-854
▁เท	-855
เก่า	-856
ต่างๆ	-857
มีความ	-858
ยังไม่	-859
วันที่	-860
ew	-861
ยุ	-862
ล์	-863
ๆๆ	-864
อาก	-865
▁เว	-866
ท้าย	-867
ก็ได้	-868
ทรัพย์	-869
ตั้งแต่	-870
ทราบว่า	-871
▁b	-872
คนิ	-873
ทธิ	-874
าร์	-875
เกม	-876
น้อย	-877
▁บาง	-878
ูม	-879
▁a	-880
▁4.	-881
▁ทั้ง	-882
68	-883
ชน	-884
สุ	-885
โต	-886
▁ง	-887
▁ๆ	-888
มอง	-889
้อยละ	-890
มั้ยคะ	-891
เที่ยว	-892
กลับมา	-893
2–	-894
id	-895
วจ	-896
นอก	-897
ลํา	-898
แรง	-899
สิ่ง	-900
เล็ก	-901
คนอื่น	-902
▁เมื่อ	-903
อย่างไร	-904
gt	-905
จุ	-906
ลม	-907
คับ	-908
เปล่า	-909
เสียง	-910
ทํายังไง	-911
63	-912
le	-913
บท	-914
ลด	-915
สาร	-916
บกวน	-917
▁ผู้	-918
ออกมา	-919
▁เค้า	-920
▁ไม่ได้	-921
าด	-922
รรม	-923
รวม	-924
รอบ	-925
ี้ย	-926
ขที่	-927
ประก	-928
แจ้ง	-929
จะไม่	-930
นักงาน	-931
กฤ	-932
หย	-933
นาง	-934
พวก	-935
วิว	-936
▁คุ	-937
▁เก	-938
ทําไม	-939
ไม่เคย	-940
สําหรับ	-941
คบ	-942
โน	-943
▁W	-944
▁ท	-945
ทย์	-946
ไลน์	-947
▁สวัส	-948
ไม่รู้	-949
us	-950
กด	-951
แผ	-952
แห	-953
▁ต	-954
ine	-955
นาด	-956
ภัย	-957
ื่อย	-958
จะได้	-959
เป็นคน	-960
ir	-961
หมอ	-962
ด้าน	-963
ทะเล	-964
ธรรม	-965
▁จํา	-966
เรือน	-967
ครอบครัว	-968
▁H	-969
จุด	-970
โรง	-971
▁ปล	-972
ล่วง	-973
หนัก	-974
อายุ	-975
▁สํา	-976
ดีค่ะ	-977
เตอร์	-978
การสอบ	-979
ตร์	-980
▁เห	-981
tion	-982
สร้าง	-983
ลูกค้า	-984
อมทรัพย์	-985
ag	-986
อ่ะ	-987
โอก	-988
ก็จะ	-989
ถ่าย	-990
ร้อง	-991
สถาน	-992
ิตย์	-993
▁the	-994
เเล้ว	-995
▁ช่วย	-996
ส่วนใหญ่	-997
อาท	-998
กรุง	-999
อาทิตย์	-1000
▁เพื่อน	-1001
▁เลขที่	-1002
▁o	-1003
บัน	-1004
แนว	-1005
ไหร	-1006
เน็ต	-1007
เร็ว	-1008
ประสบ	-1009
หน่วย	-1010
พลเรือน	-1011
ื่องจาก	-1012
กรมการบิน	-1013
▁เลขที่บัญชี	-1014
กรมการบินพลเรือน	-1015
lo	-1016
th	-1017
ตะ	-1018
บน	-1019
โอ	-1020
นอน	-1021
ฟ้า	-1022
ภาค	-1023
แหล	-1024
สนใจ	-1025
ที่มี	-1026
▁ความ	-1027
▁พร้อม	-1028
▁ออมทรัพย์	-1029
ิช	-1030
ใบ	-1031
ฟัน	-1032
ไหร่	-1033
▁ว่า	-1034
หน้าที่	-1035
ไม่อยาก	-1036
พิ	-1037
เฟ	-1038
กี่	-1039
ื้น	-1040
กับเรา	-1041
ที่สอบ	-1042
ให้เรา	-1043
คําแนะนํา	-1044
ชม	-1045
▁ว	-1046
รุป	-1047
แต่ง	-1048
เชื่อ	-1049
ที่สุด	-1050
▁เดือน	-1051
ล่วงหน้า	-1052
ที่ถูกต้อง	-1053
▁เจ	-1054
▁อัน	-1055
โอกาส	-1056
สินค้า	-1057
pan	-1058
นิด	-1059
ระบบ	-1060
เก็บ	-1061
ไปได้	-1062
ของเรา	-1063
หัวข้อ	-1064
สมัครสอบ	-1065
ได้คะแนน	-1066
ch	-1067
โคว	-1068
ผู้ชาย	-1069
▁ทําไม	-1070
▁คือเรา	-1071
▁หลังจาก	-1072
15	-1073
25	-1074
8%	-1075
__	-1076
ุ่น	-1077
โลก	-1078
ขนาด	-1079
คนิค	-1080
ช่อง	-1081
▁ส่ง	-1082
▁เขา	-1083
สิทธิ	-1084
าสตร์	-1085
ดีครับ	-1086
เนื้อหา	-1087
แช	-1088
▁O	-1089
งค์	-1090
ทั่ว	-1091
ยายาม	-1092
เขาก็	-1093
ไม่ต้อง	-1094
........	-1095
ปั	-1096
ัท	-1097
▁N	-1098
tip	-1099
จึง	-1100
ยอม	-1101
่วม	-1102
▁สา	-1103
****	-1104
ก็มี	-1105
ดีคะ	-1106
เด็ก	-1107
ประกัน	-1108
ประจํา	-1109
▁สอบถาม	-1110
เตรียมตัว	-1111
vi	-1112
ดัง	-1113
อัง	-1114
แน่	-1115
▁แฟน	-1116
เพียง	-1117
จัดส่ง	-1118
เข้าไป	-1119
▁สําหรับ	-1120
นี	-1121
รม	-1122
รอ	-1123
บาท	-1124
▁เค	-1125
บ่อย	-1126
▁ข้อ	-1127
ทําการ	-1128
ได้รับ	-1129
เลยครับ	-1130
10	-1131
em	-1132
ห์	-1133
▁ผ	-1134
ขับ	-1135
สดง	-1136
▁มิ	-1137
นั่ง	-1138
▁ใช้	-1139
หว่าง	-1140
++	-1141
ืม	-1142
กฤษ	-1143
▁ดู	-1144
ข่าว	-1145
วันนี้	-1146
เข้ามา	-1147
เท่ากัน	-1148
70	-1149
ak	-1150
po	-1151
วะ	-1152
กล้	-1153
ฐาน	-1154
ปิด	-1155
สวย	-1156
▁อีก	-1157
สงสัย	-1158
เรียก	-1159
โควิด	-1160
▁อยู่	-1161
pantip	-1162
อังกฤษ	-1163
ไม่ใช่	-1164
▁รบกวน	-1165
ผู้หญิง	-1166
รายละเอียด	-1167
เตรียมตัวสอบ	-1168
se	-1169
to	-1170
ณี	-1171
ด์	-1172
▁「	-1173
top	-1174
บัตร	-1175
พลัง	-1176
▁ยัง	-1177
▁เวลา	-1178
การทํา	-1179
ว่าเป็น	-1180
เดินทาง	-1181
ไม่ค่อย	-1182
เพิ่มเติม	-1183
ig	-1184
กา	-1185
เภ	-1186
โท	-1187
ook	-1188
ศัพ	-1189
ออน	-1190
▁เส	-1191
ซึ่ง	-1192
แสดง	-1193
ใกล้	-1194
แต่ละ	-1195
▁ระยะ	-1196
ทุกอย่าง	-1197
บ้างครับ	-1198
▁โดยเฉพาะ	-1199
ธอ	-1200
ูน	-1201
ไซ	-1202
ent	-1203
ตํา	-1204
▁5.	-1205
ียร์	-1206
เหลือ	-1207
หน่อยค่ะ	-1208
ly	-1209
จด	-1210
▁0	-1211
▁k	-1212
ครบ	-1213
ฟรี	-1214
ิ่น	-1215
โปร	-1216
ไม้	-1217
ปรับ	-1218
วิทย	-1219
เต็ม	-1220
topic	-1221
▁ครับ	-1222
อยากจะ	-1223
่านั้น	-1224
ด้วยกัน	-1225
สอบเข้า	-1226
▁เหมือน	-1227
▁แต่เรา	-1228
เท่าไหร่	-1229
▁เนื่องจาก	-1230
รส	-1231
รัฐ	-1232
สัม	-1233
ือบ	-1234
▁in	-1235
ใช้ง	-1236
ศึกษา	-1237
เหนือ	-1238
แก้ไข	-1239
▁ไม่มี	-1240
ทุกท่าน	-1241
หน่อยครับ	-1242
ร็	-1243
ิส	-1244
▁,	-1245
ตาย	-1246
ษัท	-1247
เเต่	-1248
▁คํา	-1249
▁รวม	-1250
ศัพท์	-1251
▁น้ํา	-1252
▁สรุป	-1253
ตัวเลือก	-1254
um	-1255
กะ	-1256
รึ	-1257
▁」	-1258
จับ	-1259
ฉัน	-1260
ผ้า	-1261
▁to	-1262
ตรวจ	-1263
รุ่น	-1264
ร้อน	-1265
ตั้งใจ	-1266
ผ่านมา	-1267
พยายาม	-1268
ที่เป็น	-1269
หน่วยงาน	-1270
ue	-1271
บรร	-1272
สาม	-1273
เทพ	-1274
กลาง	-1275
▁บอก	-1276
จังหว	-1277
ขอบคุณ	-1278
ใช้งาน	-1279
เพื่อนๆ	-1280
om	-1281
พบ	-1282
โจ	-1283
โพ	-1284
▁=	-1285
▁?	-1286
▁J	-1287
รอง	-1288
▁รถ	-1289
กรรม	-1290
พื้น	-1291
ร่วม	-1292
แหละ	-1293
▁เอา	-1294
สังคม	-1295
จํานวน	-1296
ต้องการ	-1297
50	-1298
st	-1299
ซี	-1300
วั	-1301
แอ	-1302
ด่า	-1303
ยาก	-1304
แปล	-1305
่อม	-1306
▁เเ	-1307
กรณี	-1308
▁กระ	-1309
▁ถึง	-1310
เกือบ	-1311
ศาสตร์	-1312
คนเดียว	-1313
เหมือนกัน	-1314
▁ระยะเวลา	-1315
▁ตามหัวข้อ	-1316
ra	-1317
ล็	-1318
วี	-1319
▁e	-1320
ter	-1321
ชุด	-1322
ณิช	-1323
ปัจ	-1324
แก้	-1325
▁1-3	-1326
พร้อม	-1327
พาณิช	-1328
ลงทุน	-1329
เขียน	-1330
ที่ไหน	-1331
เจ้าของ	-1332
แล้วค่ะ	-1333
-♥	-1334
ถม	-1335
อร	-1336
อั	-1337
กัด	-1338
ปาก	-1339
ู้น	-1340
▁of	-1341
♥-♥	-1342
view	-1343
จะไป	-1344
ประชา	-1345
เบอร์	-1346
ดีกว่า	-1347
รู้จัก	-1348
ที่บ้าน	-1349
พาณิชย์	-1350
เข้าสอบ	-1351
▁ข้อสอบ	-1352
▁ร้อยละ	-1353
ในการสอบ	-1354
▁ระยะเวลาจัดส่ง	-1355
คําตอบที่ถูกต้อง	-1356
/3	-1357
าา	-1358
ิป	-1359
ทัน	-1360
ภูม	-1361
มหา	-1362
ร็จ	-1363
ลับ	-1364
ล่า	-1365
แดง	-1366
โมง	-1367
้าม	-1368
▁วิ	-1369
▁คุณ	-1370
▁นี่	-1371
ไฟฟ้า	-1372
กลับไป	-1373
li	-1374
ธ์	-1375
รษ	-1376
คู่	-1377
ตรี	-1378
นาย	-1379
วาง	-1380
โอน	-1381
ข้าว	-1382
▁เคย	-1383
อากาศ	-1384
▁ช่วง	-1385
บริการ	-1386
บ้างคะ	-1387
♥-♥♥-♥	-1388
▁สวัสดีค่ะ	-1389
▁อยากทราบว่า	-1390
==	-1391
งง	-1392
ิท	-1393
▁g	-1394
▁ธ	-1395
ลึก	-1396
สัญ	-1397
อนุ	-1398
าที	-1399
ๆที่	-1400
คําถาม	-1401
ได้ไหม	-1402
ทําอะไร	-1403
อยากให้	-1404
ออนไลน์	-1405
เท่านั้น	-1406
ประสบการณ์	-1407
----------------	-1408
oc	-1409
ow	-1410
ve	-1411
ตี	-1412
ออ	-1413
าว	-1414
▁_	-1415
กาย	-1416
ขัน	-1417
ทัก	-1418
ร้า	-1419
แผน	-1420
▁กล	-1421
▁ผล	-1422
▁หาก	-1423
จุบัน	-1424
ปล่อย	-1425
▁เข้า	-1426
ตัดสิน	-1427
ได้เลย	-1428
แป	-1429
็ง	-1430
จีน	-1431
ราก	-1432
รุง	-1433
▁6.	-1434
ง่าย	-1435
แห่ง	-1436
อาจจะ	-1437
▁ก่อน	-1438
▁อย่า	-1439
กับแฟน	-1440
คุยกัน	-1441
ติดต่อ	-1442
ปรึกษา	-1443
▁มีใคร	-1444
มั้ยครับ	-1445
eb	-1446
ธุ	-1447
อี	-1448
็ค	-1449
▁K	-1450
ver	-1451
คอม	-1452
บาล	-1453
ีย์	-1454
▁7.	-1455
ตลาด	-1456
ทิ้ง	-1457
ปลาย	-1458
ที่ผม	-1459
เหล่า	-1460
พนักงาน	-1461
▁จากนั้น	-1462
ว่าจะเป็น	-1463
เรื่องนี้	-1464
ภาษาอังกฤษ	-1465
si	-1466
ขน	-1467
ชีพ	-1468
ดีๆ	-1469
ปัน	-1470
ภาย	-1471
อิน	-1472
เศษ	-1473
แท้	-1474
ข้าม	-1475
ชั้น	-1476
เช่น	-1477
ทําไง	-1478
▁ด้วย	-1479
▁เห็น	-1480
▁ธนาคาร	-1481
tu	-1482
ต้	-1483
ัม	-1484
โช	-1485
▁ฝ	-1486
▁–	-1487
one	-1488
ราว	-1489
สาห	-1490
ายน	-1491
ละคร	-1492
สูตร	-1493
▁คิด	-1494
เสร็จ	-1495
คุยกับ	-1496
จัดการ	-1497
ไปแล้ว	-1498
▁แต่พอ	-1499
กรุงเทพ	-1500
ระหว่าง	-1501
▁ทําให้	-1502
""	-1503
be	-1504
la	-1505
ยย	-1506
▁i	-1507
all	-1508
ยาว	-1509
โคร	-1510
โทษ	-1511
▁24	-1512
▁เข	-1513
ภูมิ	-1514
สนิท	-1515
เร็จ	-1516
▁ขาย	-1517
▁ดัง	-1518
ประกอบ	-1519
▁ประมาณ	-1520
▁วันนี้	-1521
▁แล้วก็	-1522
อ่านหนังสือ	-1523
16	-1524
19	-1525
ดุ	-1526
▁V	-1527
เกล	-1528
เภท	-1529
แอบ	-1530
ค่อน	-1531
เช้า	-1532
แข่ง	-1533
▁ทุก	-1534
▁โทร	-1535
ประโย	-1536
รีวิว	-1537
ประเภท	-1538
ทั้งหมด	-1539
สําเร็จ	-1540
ap	-1541
ht	-1542
มอ	-1543
ไห	-1544
ถุน	-1545
ลาย	-1546
แทน	-1547
▁EM	-1548
พลาด	-1549
มั่น	-1550
เเบบ	-1551
▁...	-1552
▁and	-1553
โจทย์	-1554
ขึ้นมา	-1555
ทะเลาะ	-1556
มากมาย	-1557
▁อย่าง	-1558
ความคิด	-1559
จังหวัด	-1560
ส่วนตัว	-1561
หลักของ	-1562
▁สามารถ	-1563
▁เทคนิค	-1564
ตัดสินใจ	-1565
▁เลยอยาก	-1566
เหตุการณ์	-1567
มน	-1568
แย	-1569
โค	-1570
▁+	-1571
กอง	-1572
ชัด	-1573
ณิต	-1574
ยอด	-1575
สิว	-1576
ักษ	-1577
ือด	-1578
เธอ	-1579
▁15	-1580
ร้าย	-1581
▁ค่ะ	-1582
▁จึง	-1583
▁พี่	-1584
เราจะ	-1585
มาแล้ว	-1586
ก็ไม่ได้	-1587
เหล่านี้	-1588
หน่อยนะคะ	-1589
;&	-1590
ดิ	-1591
ทน	-1592
รู	-1593
555	-1594
รรค	-1595
รษฐ	-1596
แตก	-1597
คณิต	-1598
ครอง	-1599
บัติ	-1600
ผ่อน	-1601
ี้ยง	-1602
เจ็บ	-1603
▁ทาง	-1604
ก็ยัง	-1605
▁ระบุ	-1606
จากผู้	-1607
ั่วโมง	-1608
ได้แล้ว	-1609
รู้สึกว่า	-1610
-2	-1611
ee	-1612
จอ	-1613
าค	-1614
ขาด	-1615
นับ	-1616
ไหว	-1617
▁12	-1618
▁21	-1619
▁no	-1620
ป่าว	-1621
ยิ่ง	-1622
ํานา	-1623
▁แม่	-1624
ction	-1625
น่าจะ	-1626
รักษา	-1627
หัวใจ	-1628
อาการ	-1629
อาชีพ	-1630
▁เปิด	-1631
ถุนายน	-1632
ทั่วไป	-1633
ทําความ	-1634
สุดท้าย	-1635
ค่อนข้าง	-1636
▁ไม่ว่าจะเป็น	-1637
12	-1638
รง	-1639
คดี	-1640
ซัก	-1641
ดํา	-1642
ริม	-1643
สาว	-1644
สุข	-1645
สู่	-1646
เดา	-1647
ร่าง	-1648
หนี้	-1649
หยุด	-1650
ให้น	-1651
ออกไป	-1652
พระเอก	-1653
ประชาชน	-1654
ภาษาไทย	-1655
หรือไม่	-1656
เปิดรับ	-1657
ความรู้สึก	-1658
▁ขอบคุณครับ	-1659
66	-1660
ai	-1661
ol	-1662
ฏิ	-1663
ป์	-1664
วล	-1665
ว์	-1666
เผ	-1667
168	-1668
ark	-1669
ศิล	-1670
▁คล	-1671
ฝ่าย	-1672
เว็บ	-1673
▁EMS	-1674
▁ออก	-1675
เราไป	-1676
ที่ไม่	-1677
รษฐกิจ	-1678
▁จะต้อง	-1679
▁ความรู้	-1680
กับเพื่อน	-1681
17	-1682
ce	-1683
za	-1684
ard	-1685
hop	-1686
ทาน	-1687
นด์	-1688
ราม	-1689
แยก	-1690
168.	-1691
คุ้ม	-1692
เกาะ	-1693
เจาะ	-1694
▁ค่า	-1695
ปันผล	-1696
เพิ่ง	-1697
ํานาจ	-1698
▁เล่ม	-1699
บริษัท	-1700
หลายคน	-1701
แข่งขัน	-1702
▁แนะนํา	-1703
ปัจจุบัน	-1704
ไม่สามารถ	-1705
40	-1706
ff	-1707
pp	-1708
ul	-1709
นน	-1710
ลบ	-1711
ัศ	-1712
▁/	-1713
ญาณ	-1714
บัง	-1715
ภาร	-1716
หอม	-1717
โพส	-1718
โรค	-1719
▁16	-1720
▁co	-1721
▁sa	-1722
aceb	-1723
กกกก	-1724
จ้าง	-1725
ซ่อม	-1726
สั้น	-1727
ไปหา	-1728
▁แถม	-1729
มันจะ	-1730
ว่ามี	-1731
▁สั่ง	-1732
ทุกวัน	-1733
ล่าสุด	-1734
ลําดับ	-1735
เราไม่	-1736
เรื่อย	-1737
acebook	-1738
อยู่แล้ว	-1739
อะไรบ้าง	-1740
เดียวกัน	-1741
โรงเรียน	-1742
หรือเปล่า	-1743
43	-1744
ถว	-1745
อิ	-1746
โก	-1747
▁Y	-1748
กู้	-1749
ชน์	-1750
ดิน	-1751
าหล	-1752
ใต้	-1753
ไกล	-1754
▁40	-1755
▁ปก	-1756
ระยะ	-1757
สนุก	-1758
หวัง	-1759
องค์	-1760
แข็ง	-1761
แอร์	-1762
▁งาน	-1763
กล้อง	-1764
คนนี้	-1765
มาจาก	-1766
วิสาห	-1767
ติดตาม	-1768
ประกาศ	-1769
ร้อยละ	-1770
เลี้ยง	-1771
แรกที่	-1772
ให้ได้	-1773
▁ขอให้	-1774
มีคะแนน	-1775
ไม่เป็น	-1776
ประโยชน์	-1777
วิสาหกิจ	-1778
โทรศัพท์	-1779
▁ดังนั้น	-1780
ให้ละเอียด	-1781
▁การสมัครสอบ	-1782
21	-1783
30	-1784
4–	-1785
ur	-1786
พ์	-1787
อค	-1788
๊ะ	-1789
2–6	-1790
amp	-1791
rue	-1792
ทีม	-1793
พิม	-1794
ยิน	-1795
หนี	-1796
เฉย	-1797
▁แม	-1798
พึ่ง	-1799
าหลี	-1800
เท้า	-1801
▁น่า	-1802
▁พระ	-1803
พันธ์	-1804
นี้เป็น	-1805
มีปัญหา	-1806
▁ซึ่งหาก	-1807
า	-1808
▁	-1809
น	-1810
อ	-1811
่	-1812
เ	-1813
ร	-1814
้	-1815
ก	-1816
ม	-1817
ง	-1818
ั	-1819
ย	-1820
ว	-1821
ี	-1822
ค	-1823
บ	-1824
ล	-1825
ด	-1826
ะ	-1827
ท	-1828
ไ	-1829
ห	-1830
ต	-1831
ส	-1832
แ	-1833
ิ	-1834
ป	-1835
จ	-1836
ื	-1837
ข	-1838
ใ	-1839
พ	-1840
็	-1841
ู	-1842
ช	-1843
ุ	-1844
ํ	-1845
.	-1846
e	-1847
ถ	-1848
์	-1849
a	-1850
ผ	-1851
o	-1852
t	-1853
ึ	-1854
โ	-1855
i	-1856
0	-1857
n	-1858
ๆ	-1859
1	-1860
s	-1861
r	-1862
2	-1863
-	-1864
ซ	-1865
5	-1866
ณ	-1867
c	-1868
l	-1869
ฟ	-1870
p	-1871
/	-1872
ญ	-1873
3	-1874
m	-1875
h	-1876
ศ	-1877
d	-1878
u	-1879
ธ	-1880
6	-1881
4	-1882
ภ	-1883
)	-1884
(	-1885
ษ	-1886
9	-1887
w	-1888
8	-1889
g	-1890
,	-1891
:	-1892
S	-1893
7	-1894
y	-1895
?	-1896
k	-1897
b	-1898
f	-1899
A	-1900
T	-1901
B	-1902
C	-1903
M	-1904
ฉ	-1905
P	-1906
E	-1907
%	-1908
v	-1909
"	-1910
*	-1911
I	-1912
๊	-1913
R	-1914
–	-1915
O	-1916
ฝ	-1917
D	-1918
ฐ	-1919
L	-1920
G	-1921
;	-1922
F	-1923
!	-1924
N	-1925
x	-1926
+	-1927
_	-1928
#	-1929
ฮ	-1930
z	-1931
'	-1932
K	-1933
=	-1934
H	-1935
W	-1936
&	-1937
ฤ	-1938
”	-1939
“	-1940
♥	-1941
[	-1942
]	-1943
๋	-1944
U	-1945
V	-1946
ฯ	-1947
ฏ	-1948
J	-1949
Y	-1950
「	-1951
」	-1952
X	-1953
j	-1954
ฎ	-1955
@	-1956
ฒ	-1957
😭	-1958
🙏	-1959
ฆ	-1960
$	-1961
{	-1962
}	-1963
️	-1964
Z	-1965
^	-1966
ฑ	-1967
q	-1968
’	-1969
Q	-1970
๒	-1971
|	-1972
ฬ	-1973
🏻	-1974
๖	-1975
😂	-1976
🏼	-1977
๑	-1978
❤	-1979
😅	-1980
~	-1981
๔	-1982
▶	-1983
☺	-1984
🌻	-1985
😍	-1986
🥺	-1987
‘	-1988
😁	-1989
>	-1990
๓	-1991
๕	-1992
